TRT-8612-EntropyCalibration2
input.72: 3cb9c64a
input.148: 3ceabfec
input.224: 3d111505
input.292: 3ded7bfd
input.296: 3ebe4e87
input.308: 3dc92ad7
input.324: 3d2bb743
input.340: 3c999a35
onnx::Resize_1866: 3ed1a5e0
onnx::Concat_1875: 3dae4d2c
onnx::Concat_1885: 3d2a9ce1
onnx::Concat_1895: 3c8815ba
input.300: 3ed1a5e0
input.304: 40cc9f66
onnx::Concat_1873: 3f96f950
input.312: 3f0061b0
input.316: 3f0061b0
input.320: 400a6880
onnx::Concat_1883: 3fc19878
input.328: 3f811ea4
input.332: 3f811ea4
input.336: 4038125d
onnx::Concat_1893: 3fd434e2
input.344: 3f4dec2c
input.348: 3f4dec2c
input.352: 40095a50
onnx::Resize_1903: 3f9974e6
input.356: 3f9974e6
input.360: 3f366ffc
onnx::Conv_1910: 3d9bdf33
onnx::Sigmoid_1911: 3ce11837
onnx::Mul_1912: 3bfa9921
